000000000001000011
000000000000000000
000000000100101111
000000000011000110
000000000000010011
000000000000000000
000000000001101011
000000000000000000
000000000000000000
000000000000000000
000000000000000000
000000000000000000
000000000000000000
000000000001000000
000000000001111000
000000000000000000
000000000010110010
000000000000000000
000000000000000000
000000000010110101
000000000000000000
000000000001010110
000000000000000000
000000000001101110
000000000000000000
000000000000000000
000000000000000000
000000000000000000
000000000000000000
000000000000000000
000000000000000000
000000000000000000
000000000000000000
000000000000000000
000000000000111110
000000000000000000
000000000000000000
000000000000011010
000000000100010100
000000000000000000
000000000011001010
000000000000000000
000000000000000000
000000000000000000
000000000000000000
000000000000000000
000000000000000000
000000000100111001
000000000000000000
000000000000000000
000000000000000000
000000000000010110
000000000000000000
000000000101111001
000000000010110010
000000000000000000
000000000000000000
000000000000000000
000000000000000000
000000000000000000
000000000000101000
000000000001111100
000000000000000000
000000000000000000
000000000000000000
000000000000000000
000000000000000000
000000000001111100
000000000000000000
000000000000000000
000000000000000000
000000000000001100
000000000000000000
000000000010111100
000000000000000000
000000000000000000
000000000000000000
000000000000000000
000000000000000000
000000000010111110
000000000000000000
000000000001011001
000000000000000000
000000000000000000
000000000000000000
000000000000000000
000000000000000000
000000000000000000
000000000000000000
000000000000000000
000000000011010000
000000000000000000
000000000010100100
000000000000110111
000000000000000000
000000000000000000
000000000000000000
000000000000000000
000000000001101100
000000000100110100
000000000000000000
000000000000000000
000000000000000000
000000000000000000
000000000010000001
000000000000000000
000000000000000000
000000000001000011
000000000000000000
000000000000000000
000000000000000000
000000000001101001
000000000000000000
000000000000000000
000000000000000000
000000000000000000
000000000000000000
000000000010110010
000000000000000000
000000000011100000
000000000010000110
000000000010011001
000000000000000000
000000000000000000
000000000001111100
000000000000000000
000000000001010010
000000000000000000
000000000000000000
000000000000000000
000000000000000000
000000000000000000
000000000001011100
000000000000000000
000000000000000000
000000000000101111
000000000000000000
000000000000000000
000000000000000010
000000000000000000
000000000000000000
000000000000000000
000000000010000000
000000000000000000
000000000000000000
000000000000000000
000000000000000000
000000000000000000
000000000000000000
000000000100110000
000000000000000000
000000000000000000
000000000000000000
000000000011000000
000000000000000000
000000000000000000
000000000000000000
000000000000000000
000000000000000000
000000000001100101
000000000000000000
000000000000000000
000000000010111011
000000000000000000
000000000000000000
000000000010001110
000000000000000000
000000000000000000
000000000000000000
000000000000000000
000000000100101000
000000000100011011
000000000000000000
000000000010101100
000000000000000000
000000000000000000
000000000000000000
000000000000000000
000000000000000000
000000000001000101
000000000000111100
000000000000000001
000000000000000000
000000000001011000
000000000000000000
000000000000000000
000000000000000000
000000000000000000
000000000001110111
000000000000000000
000000000000000000
000000000000000000
000000000000000000
000000000000000000
000000000000000000
000000000000000000
000000000000000000
000000000010011001
000000000000000000
000000000010100101
000000000010111011
000000000000000000
000000000000000000
000000000100010001
000000000000000000
000000000000000000
000000000000000000
000000000000000000
000000000000000000
000000000010001111
000000000010110110
000000000010101000
000000000000000000
000000000000000000
000000000000000000
000000000000000000
000000000000000000
000000000010001011
000000000000000000
000000000000000000
000000000000000000
000000000010011000
000000000000000000
000000000000000000
000000000010100111
000000000000000000
000000000000000000
000000000000000000
000000000000000000
000000000000000000
000000000000000000
000000000011011110
000000000000000000
000000000000000000
000000000000000000
000000000000101110
000000000100111110
000000000000000000
000000000000000000
000000000000000000
000000000000010100
000000000000000000
000000000010101001
000000000000000000
000000000000000000
000000000000000000
000000000010101010
000000000000000000
000000000000000000
000000000011010101
000000000000000000
000000000000000000
000000000000000000
000000000000000000
000000000000000000
000000000000000000
